%YAML 1.2
---
# !!!This file disallow TABs!!!
quantize_parameters:
    '@attach_Add_Add_7/out0_0:out0':
        dtype: asymmetric_affine
        method: layer
        max_value:
        -   255.0
        min_value:
        -   0.0
        zero_point:
        -   0
        scale:
        -   1.0
        qtype: u8
    '@Add_Add_7_1:out0':
        dtype: asymmetric_affine
        method: layer
        max_value:
        -   255.0
        min_value:
        -   0.0
        zero_point:
        -   0
        scale:
        -   1.0
        qtype: u8
    '@Reshape_Reshape_5_2:out0':
        dtype: asymmetric_affine
        method: layer
        max_value:
        -   255.0
        min_value:
        -   0.0
        zero_point:
        -   0
        scale:
        -   1.0
        qtype: u8
    '@Initializer_onnx//Add_6_3:out0':
        dtype: asymmetric_affine
        method: layer
        max_value:
        -   255.0
        min_value:
        -   0.0
        zero_point:
        -   0
        scale:
        -   1.0
        qtype: u8
    '@input_4:out0':
        dtype: asymmetric_affine
        method: layer
        max_value:
        -   255.0
        min_value:
        -   0.0
        zero_point:
        -   0
        scale:
        -   1.0
        qtype: u8
    '@Initializer_onnx//Add_6_3:data':
        dtype: asymmetric_affine
        method: layer
        max_value:
        -   255.0
        min_value:
        -   0.0
        zero_point:
        -   0
        scale:
        -   1.0
        qtype: u8
customized_quantize_layers: {}
